TRT-7103-EntropyCalibration
input: 3c91a2f5
163: 3d91bd28
164: 3d9c0edb
167: 3d406f3c
171: 3dd9b1a4
174: 3d419517
178: 3de38e58
181: 3cfd4829
270: 3d0fa1d8
187: 3d6e2bfe
190: 3cbf0c5e
194: 3d555b41
197: 3d0d32b0
285: 3d141c36
203: 3d14996a
206: 3c784fad
210: 3d075ca6
213: 3c87674b
300: 3d2e0c18
219: 3cee32c2
222: 3c5720bd
226: 3dd7dc52
227: 404de4af
229: 3d287ea4
230: 3f14d7a8
232: 3d3a6e57
233: 3f403623
235: 3d4bf73c
236: 3d8993a7
238: 3f124326
hm: 3e8b4d87
241: 3fa5c8e9
hps: 3f9ebc4c
244: 3e88b6ec
rot: 3dd56df1
247: 3e31bb70
dim: 3d26201b
250: 3ef2816d
prob: 3d12bd5d
