TRT-7103-EntropyCalibration
input: 3c9cdc9c
163: 3dafcd62
164: 3db6a67b
167: 3d420b18
171: 3e0155c1
174: 3d460e75
178: 3e0918a1
181: 3d0c04db
270: 3d506d98
187: 3d88f0b0
190: 3d0a32fa
194: 3d82adaf
197: 3d14aef5
285: 3d390d89
203: 3d392ebf
206: 3c9a1b86
210: 3d1c4c12
213: 3c91e01b
300: 3d37a072
219: 3d27fcc7
222: 3cb1bb70
226: 3ebf22ae
227: 40545962
229: 3dca907d
230: 3f9fa770
232: 3d8c271d
233: 3ec4a94a
235: 3d70562b
236: 3d7e303e
238: 3e605c3f
hm: 3ea1154a
241: 3f412f20
hps: 3f676082
244: 3da17465
rot: 3d3a3d09
247: 3dabbb7e
dim: 3d1dc84f
250: 3e27c879
prob: 3cf20931
